E7 F5 05 12 14
F4 F7 F4 FD 18
17 F8 D1 C6 E0
09 17 14 F3 F3
FE 00 1E 21 FF
E6 D8 DA EE E4
13 FB E5 E0 D6
0D 10 1A 1B 0B
FF 00 0B 0D 0F
00 FE F6 F7 06
F5 EC 07 0E 0B
DA F8 19 06 EC
C1 1A 2E F4 DF
E9 2C 32 F2 E6
13 27 1A FE FE
F9 E2 D9 E5 04
E4 ED 0A 10 15
EB 00 09 10 EB
05 11 17 FB FC
12 21 0E 16 08
02 ED E0 00 26
0F FF DF EE 20
1F FE DD EE 26
17 FB D5 00 21
07 E9 F5 24 20
01 FB F7 ED DD
03 0D F3 F1 F2
FB 13 F6 EB FE
01 12 0E 00 0A
14 21 26 26 1A
0B 27 2B 17 0E
F7 EB F0 FA FF
02 E1 E0 DD E4
FE FD EC FE 03
FB FF FF 04 00
FF FF ED E0 F0
08 17 02 E8 F0
04 09 15 E7 E5
FD 15 0A F3 FC
FD 0B 0D 05 F5
09 1B FC C9 D7
EF 16 34 1B CD
E0 E8 24 2F F8
E3 EA 0D 29 02
03 F4 F8 0C FC
E7 FE F5 00 0A
F1 25 00 F5 18
F6 22 EF F3 17
0F 1B F2 03 17
03 0C 01 FF 06
0A 04 07 EE F1
FE 14 27 18 FE
E3 EA 0E 27 12
E8 E5 DD FF 09
F7 EA E8 EB EA
FC F1 09 21 0F
14 E5 DA F6 E2
24 05 DD E9 EF
18 07 0C 03 00
05 0D 06 FF 11
