04 0B 03 00 F9
FE FF FD FE FB
04 F5 FD 00 FC
FA F2 02 02 F9
F6 05 05 05 FF
04 01 F8 F3 0B
F3 F9 F4 F9 FD
F3 0A 05 08 F4
FD FB FA F7 04
F4 FF 0A F9 FF
F6 FA 10 FC F7
02 0F 0B 03 05
01 06 06 FE 02
F6 FA 01 FC FD
00 0C 00 09 05
05 F2 02 F9 01
FA FB FC F5 00
0A 04 05 05 F7
0A FF 0A 04 04
04 FD FB FF F7
FE 08 06 08 FA
02 0B 00 06 01
0C 05 01 FA 0D
08 09 09 0C F7
06 FA 07 09 FF
06 0C 0B 03 00
FC 00 F7 FE 0B
0E 03 07 09 09
03 FD 04 00 0A
F9 F6 F5 F5 09
06 F9 FD F3 F8
FD FE F9 09 0A
07 00 08 05 FF
0B FA FE 01 FD
06 F6 03 00 07
02 07 00 00 F8
F4 02 01 F8 06
00 F6 0B F5 FD
FB FC 05 02 F8
FD F8 FF 03 06
05 08 F8 04 02
F7 F2 02 09 FF
FE FD 06 FA F9
05 03 09 03 00
F6 07 FE 05 0C
07 0E 02 0C FC
0A 0E FD FB 09
FD F6 08 06 F6
07 FD 02 FE 05
00 09 07 F4 0B
F3 00 00 FC 08
07 02 05 FD F7
F5 FF F5 06 FD
0B F4 FD 05 01
01 FC 07 F7 F6
03 FC 06 0D FB
F6 03 02 FA FC
08 03 08 FF 04
F5 F5 F8 00 03
03 FF F5 F6 FA
