07 0A 0B 03 0A
02 0C F8 F9 FE
01 FE 04 0A F8
00 0B 03 F4 02
FA FD 0B F8 FB
F9 06 07 00 0B
09 F4 00 05 0B
FD F4 00 03 F9
00 F5 FA FE 07
F5 F6 06 0A F6
00 0A F6 01 F8
FC 05 F9 FD 01
F3 02 0B 07 02
08 05 08 F7 00
03 F7 06 05 F8
FD F5 0C 04 09
01 F9 00 FF F6
FE FA F4 F7 FC
0A 01 F7 FA 0A
07 0B F9 06 FF
FC FC 08 0B 00
FF FB 09 F8 09
F7 03 08 FF FD
0C 09 00 F6 0A
00 09 FA FA F6
0A FC F4 08 F7
FA FE 05 05 F6
FF F6 FF F7 F6
F9 08 F8 F9 F9
04 F9 FD F5 F5
07 02 F4 06 00
02 F7 FA F5 FA
FD 08 FD 03 FC
01 00 02 F8 02
FF 03 FC FA FC
FE 08 01 F9 FA
07 02 0C FE 08
FE 0A 07 FD 06
0A FC F5 0B FE
02 FA FA 02 00
0C 01 08 FB F6
FE FE 00 F7 03
F6 F9 F7 F4 03
09 08 05 FD FF
06 FF 08 FC 05
FA 06 07 02 F4
07 0A FD F8 09
05 FF FB 08 FA
02 08 05 04 F9
F8 F4 F7 F6 06
08 F4 FF 00 F9
02 08 FC FC F4
04 FF FB 09 F6
FD 0B FB 09 F8
FE 06 01 F4 02
0B F5 FE 05 0A
05 FD FC 06 FA
F4 F7 FB FC 06
F5 FF F7 00 09
FA 05 07 FD 03
