F8 EF 08 0E 0D
06 F7 F1 04 02
12 F6 ED ED 01
06 18 20 1A 15
01 1E 34 16 04
F6 E5 EB E4 F3
02 03 0C F7 EF
1B 18 10 16 0F
06 00 0C 00 19
09 05 FC ED F7
01 04 0B 0B FD
01 08 03 E4 EF
FC F3 D1 E7 F7
F4 C6 F0 02 F3
D9 E3 FA 04 F8
F7 F5 04 06 00
FA 0C 15 06 F5
14 1C F3 E6 00
FC F3 E8 08 10
F1 F1 FD 0C 06
F1 01 EA F3 08
0C FF E5 F8 FF
FF EC 00 00 FA
EB F1 00 F8 F0
05 0B 1C FF F5
F5 FB F9 F7 FD
00 05 F1 F7 0C
F0 01 03 01 F5
F6 FE 0B 00 EC
0A 05 0C FB FD
0F 2B 42 35 20
F9 FC FA F2 FB
FD F7 F2 FD ED
00 19 0A 06 F8
12 07 0E F9 00
FB F5 F9 F8 F5
F7 00 FD 02 EF
FF FB 07 ED F5
11 00 F4 FF 01
05 F0 F0 00 03
0C 06 0D EB E1
F0 11 07 01 EA
03 E4 FB 08 F1
12 F5 F7 EB F4
08 15 E9 EF 03
0A F9 F5 01 FE
F6 F5 F3 F0 FD
F2 EA 07 F1 0E
EA 00 00 EF 0A
F4 FA FF F5 FD
01 FC 14 12 16
F7 14 21 0E 0A
ED EF 0C 13 09
F1 E7 E8 FE 0F
0E 05 09 05 04
FE FD FF 05 F0
DD E4 EA F1 F7
FC 0D 06 FB 08
F8 FF 03 0B 09
F1 F7 F4 10 0D
