15 2F F7 00 FB
5B 26 1A D8 CB
7F 54 13 F2 D1
7F 7F 47 31 FC
3D 5A 60 36 23
EB 07 F4 FB 05
E9 E8 13 08 07
FF 02 F7 19 F9
FD E5 1E FF 0F
EB F2 25 FC F3
F2 CE D3 D4 DF
F1 E2 C8 C0 EF
1C EF ED 04 36
30 41 3F 4F 2C
3C 45 41 58 20
F6 FB 06 FA F4
0E FC 06 E7 09
F8 F4 E7 04 08
F9 F1 E8 04 FD
00 F1 FF F0 EB